{"encoder": {"!": 0, "\"": 1, "#": 2, "$": 3, "%": 4, "&": 5, "'": 6, "(": 7, ")": 8, "*": 9, "+": 10, ",": 11, "-": 12, ".": 13, "/": 14, "0": 15, "1": 16, "2": 17, "3": 18, "4": 19, "5": 20, "6": 21, "7": 22, "8": 23, "9": 24, ":": 25, ";": 26, "<": 27, "=": 28, ">": 29, "?": 30, "@": 31, "A": 32, "B": 33, "C": 34, "D": 35, "E": 36, "F": 37, "G": 38, "H": 39, "I": 40, "J": 41, "K": 42, "L": 43, "M": 44, "N": 45, "O": 46, "P": 47, "Q": 48, "R": 49, "S": 50, "T": 51, "U": 52, "V": 53, "W": 54, "X": 55, "Y": 56, "Z": 57, "[": 58, "\\": 59, "]": 60, "^": 61, "_": 62, "`": 63, "a": 64, "b": 65, "c": 66, "d": 67, "e": 68, "f": 69, "g": 70, "h": 71, "i": 72, "j": 73, "k": 74, "l": 75, "m": 76, "n": 77, "o": 78, "p": 79, "q": 80, "r": 81, "s": 82, "t": 83, "u": 84, "v": 85, "w": 86, "x": 87, "y": 88, "z": 89, "{": 90, "|": 91, "}": 92, "~": 93, "¡": 94, "¢": 95, "£": 96, "¤": 97, "¥": 98, "¦": 99, "§": 100, "¨": 101, "©": 102, "ª": 103, "«": 104, "¬": 105, "®": 106, "¯": 107, "°": 108, "±": 109, "²": 110, "³": 111, "´": 112, "µ": 113, "¶": 114, "·": 115, "¸": 116, "¹": 117, "º": 118, "»": 119, "¼": 120, "½": 121, "¾": 122, "¿": 123, "À": 124, "Á": 125, "Â": 126, "Ã": 127, "Ä": 128, "Å": 129, "Æ": 130, "Ç": 131, "È": 132, "É": 133, "Ê": 134, "Ë": 135, "Ì": 136, "Í": 137, "Î": 138, "Ï": 139, "Ð": 140, "Ñ": 141, "Ò": 142, "Ó": 143, "Ô": 144, "Õ": 145, "Ö": 146, "×": 147, "Ø": 148, "Ù": 149, "Ú": 150, "Û": 151, "Ü": 152, "Ý": 153, "Þ": 154, "ß": 155, "à": 156, "á": 157, "â": 158, "ã": 159, "ä": 160, "å": 161, "æ": 162, "ç": 163, "è": 164, "é": 165, "ê": 166, "ë": 167, "ì": 168, "í": 169, "î": 170, "ï": 171, "ð": 172, "ñ": 173, "ò": 174, "ó": 175, "ô": 176, "õ": 177, "ö": 178, "÷": 179, "ø": 180, "ù": 181, "ú": 182, "û": 183, "ü": 184, "ý": 185, "þ": 186, "ÿ": 187, "Ā": 188, "ā": 189, "Ă": 190, "ă": 191, "Ą": 192, "ą": 193, "Ć": 194, "ć": 195, "Ĉ": 196, "ĉ": 197, "Ċ": 198, "ċ": 199, "Č": 200, "č": 201, "Ď": 202, "ď": 203, "Đ": 204, "đ": 205, "Ē": 206, "ē": 207, "Ĕ": 208, "ĕ": 209, "Ė": 210, "ė": 211, "Ę": 212, "ę": 213, "Ě": 214, "ě": 215, "Ĝ": 216, "ĝ": 217, "Ğ": 218, "ğ": 219, "Ġ": 220, "ġ": 221, "Ģ": 222, "ģ": 223, "Ĥ": 224, "ĥ": 225, "Ħ": 226, "ħ": 227, "Ĩ": 228, "ĩ": 229, "Ī": 230, "ī": 231, "Ĭ": 232, "ĭ": 233, "Į": 234, "į": 235, "İ": 236, "ı": 237, "Ĳ": 238, "ĳ": 239, "Ĵ": 240, "ĵ": 241, "Ķ": 242, "ķ": 243, "ĸ": 244, "Ĺ": 245, "ĺ": 246, "Ļ": 247, "ļ": 248, "Ľ": 249, "ľ": 250, "Ŀ": 251, "ŀ": 252, "Ł": 253, "ł": 254, "Ń": 255, "Ġt": 256, "he": 257, "Ġa": 258, "in": 259, "Ġthe": 260, "Ġs": 261, "Ġw": 262, "Ġo": 263, "re": 264, "ha": 265, "nd": 266, "er": 267, "âĢ": 268, "ou": 269, "Ġm": 270, "ed": 271, "Ġb": 272, "is": 273, "it": 274, "on": 275, "en": 276, "Ġf": 277, "Ġc": 278, "ing": 279, "Ġof": 280, "Ġand": 281, "es": 282, "Ġto": 283, "or": 284, "Ġd": 285, "Ġin": 286, "ll": 287, "at": 288, "ar": 289, "as": 290, "ĠI": 291, "le": 292, "an": 293, "Ġp": 294, "Ġh": 295, "hat": 296, "om": 297, "Ġn": 298, "Ġl": 299, "Ġha": 300, "Ġhe": 301, "ic": 302, "ow": 303, "ut": 304, "âĢľ": 305, "Ġbe": 306, "st": 307, "Ġy": 308, "ly": 309, "Ġth": 310, "âĢĿ": 311, "Ġe": 312, "ot": 313, "Ġthat": 314, "se": 315, "ve": 316, "id": 317, "Ġg": 318, "gh": 319, "im": 320, "ld": 321, "Ġit": 322, "ver": 323, "Ġu": 324, "Ġyou": 325, "ent": 326, "Ġwas": 327, "âĢĻ": 328, "ce": 329, "ion": 330, "ith": 331, "Ġon": 332, "Ġwh": 333, "et": 334, "Ġre": 335, "ur": 336, "Ġhis": 337, "al": 338, "ay": 339, "Ġmy": 340, "Ġwith": 341, "Ġas": 342, "ro": 343, "ad": 344, "ir": 345, "ght": 346, "Ġfor": 347, "Ġis": 348, "Ġst": 349, "ri": 350, "ct": 351, "her": 352, "Ġwe": 353, "Ġse": 354, "Ġme": 355, "Ġan": 356, "ain": 357, "Ġnot": 358, "Ġat": 359, "ould": 360, "Ġsa": 361, "ter": 362, "ch": 363, "ĠT": 364, "oo": 365, "Ġhad": 366, "and": 367, "ck": 368, "ke": 369, "ess": 370, "ĠA": 371, "il": 372, "red": 373, "ill": 374, "am": 375, "ich": 376, "ĠS": 377, "Ġso": 378, "if": 379, "rom": 380, "ĠH": 381, ".âĢĿ": 382, "ore": 383, "Ġsu": 384, "Ġup": 385, "Ġhave": 386, "th": 387, "all": 388, "qu": 389, "ra": 390, "Ġall": 391, "pe": 392, "Ġbut": 393, "ight": 394, "ge": 395, "Ġthis": 396, "Ġde": 397, "ĠâĢľ": 398, "Ġwhich": 399, "the": 400, "ome": 401, "ab": 402, "Ġsh": 403, "âĢĶ": 404, "Ġhim": 405, "Ġby": 406, "ul": 407, "Ġfrom": 408, "to": 409, "hen": 410, "ol": 411, "ous": 412, "Ġcon": 413, "Ġv": 414, "est": 415, "ĠM": 416, "very": 417, "ard": 418, "ĠW": 419, "em": 420, "res": 421, "ound": 422, "pp": 423, "Ġr": 424, "Ġor": 425, "Ġher": 426, "Ġsaid": 427, "ĠB": 428, "ast": 429, "ation": 430, "ind": 431, "un": 432, "Ġfe": 433, "us": 434, ",âĢĿ": 435, "ĠThe": 436, "Ġdo": 437, "Ġex": 438, "ust": 439, "Ġman": 440, "Ġk": 441, "ant": 442, "lf": 443, "Ġone": 444, "our": 445, "out": 446, "ers": 447, "Ġle": 448, "Ġshe": 449, "Ġwere": 450, "ong": 451, "Ġne": 452, "art": 453, "one": 454, "ist": 455, "Ġal": 456, "own": 457, "han": 458, "Ġno": 459, "um": 460, "hale": 461, "Ġli": 462, "ate": 463, "ice": 464, "el": 465, "Ġun": 466, "Ġthere": 467, "Ġwho": 468, "ĠC": 469, "ect": 470, "itt": 471, "Ġare": 472, "Ġwhen": 473, "ough": 474, "ost": 475, "Ġyour": 476, "la": 477, "Ġwor": 478, "ook": 479, "Ġupon": 480, "Ġout": 481, "ort": 482, "ak": 483, "reat": 484, "pt": 485, "Ġcom": 486, "ĠP": 487, "os": 488, "able": 489, "self": 490, "ood": 491, "ag": 492, "Ġab": 493, "?âĢĿ": 494, "ure": 495, "Ġsome": 496, "per": 497, "ther": 498, "ive": 499, "Ġkn": 500, "Ġwould": 501, "Ġbeen": 502, "ide": 503, "ig": 504, "Ġj": 505, "ven": 506, "od": 507, "hed": 508, "lo": 509, "Ġag": 510, "ell": 511, "Ġinto": 512, "li": 513, "ĠF": 514, "Ġthey": 515, "Ġwhat": 516, "ĠG": 517, "Ġvery": 518, "ue": 519, "Ġpro": 520, "Ġthen": 521, "Ġany": 522, "ip": 523, "ved": 524, "nt": 525, "ish": 526, "Ġsp": 527, "fore": 528, "Ġwill": 529, "ine": 530, "Ġcan": 531, "of": 532, "ity": 533, "Ġqu": 534, "Ġnow": 535, "here": 536, "ep": 537, "ame": 538, "Ġam": 539, "ite": 540, "ry": 541, "ĊĠ": 542, "cc": 543, "Ġmore": 544, "urn": 545, "Ġwhale": 546, "âĢĺ": 547, "te": 548, "Ġif": 549, "ĠD": 550, "ance": 551, "ass": 552, "Ġover": 553, "Ġthem": 554, "Ġcould": 555, "Ġsha": 556, "ime": 557, "Ġtheir": 558, "ber": 559, "ink": 560, "ble": 561, "ittle": 562, "Ġother": 563, "de": 564, "Ġro": 565, "ark": 566, "Ġaf": 567, "ious": 568, "ĠL": 569, "ose": 570, "ies": 571, "ond": 572, "ence": 573, "ought": 574, "!âĢĿ": 575, "Ġdown": 576, "Ġus": 577, "ĠHe": 578, "ake": 579, "Ġlike": 580, "ally": 581, "ings": 582, "are": 583, "Ġim": 584, "be": 585, "Ġlittle": 586, "ac": 587, "way": 588, "Ġsee": 589, "age": 590, "ĠN": 591, "ather": 592, "wn": 593, "we": 594, "hing": 595, "Ġar": 596, "ran": 597, "ĠBut": 598, "ree": 599, "ĠSt": 600, "Ġen": 601, "ie": 602, "ness": 603, "Ġhas": 604, "ack": 605, "Ġgo": 606, "The": 607, "Ġtw": 608, "Ġhand": 609, "ire": 610, "op": 611, "ĠIt": 612, "Ġonly": 613, "Ġshould": 614, "ated": 615, "Ġthan": 616, "me": 617, "Ġabout": 618, "Ġbo": 619, "ount": 620, "led": 621, "Ġfa": 622, "Ġye": 623, "Ġagain": 624, "ars": 625, "Ġhow": 626, "ull": 627, "Ġrem": 628, "Ġknow": 629, "Ġmay": 630, "ress": 631, "ĠO": 632, "Ġour": 633, "Ġdid": 634, "Ġper": 635, "ap": 636, "his": 637, "You": 638, "ving": 639, "Ġtime": 640, "Ġlook": 641, "Ġits": 642, "ject": 643, "ward": 644, "Ġbefore": 645, "uch": 646, "ick": 647, "Ġseem": 648, "au": 649, "mes": 650, "ning": 651, "ment": 652, "Ġdis": 653, "ile": 654, "ĠE": 655, "olmes": 656, "less": 657, "right": 658, "ever": 659, "ud": 660, "Ġsuch": 661, "ade": 662, "Ġmust": 663, "ove": 664, "Ġoff": 665, "ves": 666, "ted": 667, "ions": 668, "for": 669, "Ġad": 670, "man": 671, "ng": 672, "ried": 673, "Ġcomp": 674, "les": 675, "Ġbr": 676, "irst": 677, "Ġday": 678, "Ġpo": 679, "Ġthese": 680, "ise": 681, "Ġhar": 682, "ff": 683, "Ġgreat": 684, "lice": 685, "Ġtr": 686, "Ġsay": 687, "old": 688, "nder": 689, "ful": 690, "Ġlong": 691, "ne": 692, "that": 693, "ĠR": 694, "ĠHolmes": 695, "Ġmight": 696, "Ġey": 697, "ling": 698, "Ġsm": 699, "ary": 700, "ced": 701, "Ġtoo": 702, "Ġold": 703, "Ġgr": 704, "ife": 705, "Ġsc": 706, "Ġhead": 707, "Ġthr": 708, "end": 709, "so": 710, "ath": 711, "ild": 712, "Ġcha": 713, "ub": 714, "Ġafter": 715, "Ġown": 716, "Ġ_": 717, "Ġob": 718, "Ġthought": 719, "Ġyet": 720, "other": 721, "Ġship": 722, "Ġpre": 723, "Ġbl": 724, "Ġdes": 725, "Ġmost": 726, "uck": 727, "Ġway": 728, "oll": 729, "Ġpart": 730, "Ġch": 731, "Ġwork": 732, "tain": 733, "Ġtwo": 734, "Ġevery": 735, "wh": 736, "ord": 737, "Ġpl": 738, "Ġthink": 739, "Ġmuch": 740, "Ġfirst": 741, "oy": 742, "Ġcl": 743, "ĠĠ": 744, "ps": 745, "atter": 746, "It": 747, "ĠAlice": 748, "ĠMr": 749, "ĠAnd": 750, "Ġpass": 751, "âĢľâĢĺ": 752, "Ġthose": 753, "Ġnever": 754, "ach": 755, "ily": 756, "equ": 757, "sh": 758, "Ġwhere": 759, "ouse": 760, "oss": 761, "Ġshall": 762, "ened": 763, "int": 764, "fe": 765, "not": 766, "anc": 767, "Ġback": 768, "ory": 769, "Ġpe": 770, "Ġeven": 771, "Ġent": 772, "omet": 773, "Ġcont": 774, "ĠJ": 775, "ase": 776, "ign": 777, "ave": 778, "ĊĊ": 779, "Ġwat": 780, "Ġhere": 781, "Ġimp": 782, "ER": 783, "ft": 784, "Ġlast": 785, "Ġsea": 786, "con": 787, "Ġend": 788, "apt": 789, "ked": 790, "Ġmade": 791, "Ġfound": 792, "Ġstill": 793, "hes": 794, "Ġacc": 795, "Ġbeing": 796, "ty": 797, "ady": 798, "berg": 799, "Ġever": 800, "Ġcons": 801, "cl": 802, "uten": 803, "Que": 804, "but": 805, "Ġspe": 806, "Ġgl": 807, "Ġgood": 808, "po": 809, "ci": 810, "ations": 811, "ied": 812, "Ġcame": 813, "Ġcome": 814, "Ġpla": 815, "utenberg": 816, "Ġturn": 817, "ible": 818, "pl": 819, "Ġwell": 820, "Ġeyes": 821, "Ġunder": 822, "riend": 823, "Ġseemed": 824, "HA": 825, "ared": 826, "Ġdist": 827, "most": 828, "ens": 829, "imes": 830, "But": 831, "Ġcr": 832, "Ġbec": 833, "ĠâĢĺ": 834, "Ġbeg": 835, "av": 836, "pect": 837, "Ġaway": 838, "Ġop": 839, "TER": 840, "Ġap": 841, "hab": 842, "Ġpres": 843, "Ġres": 844, "Ġwha": 845, "Ġthrough": 846, "Ġbet": 847, "aptain": 848, "ged": 849, "Ġra": 850, "Ġpr": 851, "ock": 852, "Ġsame": 853, "Ġinst": 854, "ting": 855, "Ġke": 856, "Ġwhile": 857, "Ġjust": 858, "Ġstr": 859, "ĊĠĠĠ": 860, "PTER": 861, "HAPTER": 862, "roject": 863, "land": 864, "ret": 865, "Ġnight": 866, "ors": 867, "Ġround": 868, "Ġsw": 869, "Ġheard": 870, "Ġcall": 871, "Ġthough": 872, "wards": 873, "rew": 874, "Ġsaw": 875, "ered": 876, "Ġside": 877, "Ġlife": 878, ".âĢĻ": 879, "eg": 880, "Ġret": 881, "Ġcomm": 882, "igh": 883, "med": 884, "up": 885, "com": 886, "ĠYou": 887, "owed": 888, "Ġthree": 889, "Ġmyself": 890, "Ġlet": 891, "Ġboat": 892, "ows": 893, "Ġword": 894, "Ġwind": 895, "Ġfriend": 896, "ĠQue": 897, "Ġmis": 898, "og": 899, "iness": 900, "Ġfeel": 901, "ail": 902, "Ġ1": 903, "ren": 904, "den": 905, "with": 906, "ix": 907, "ĠIn": 908, "Ġwithout": 909, "ular": 910, "der": 911, "Ġsomet": 912, "Ġfl": 913, "Ġhimself": 914, "mer": 915, "ited": 916, "ene": 917, "ict": 918, "Ġroom": 919, "CHAPTER": 920, "ger": 921, "iz": 922, "Ġ(": 923, "ex": 924, "ks": 925, "Ġrep": 926, "Ġsl": 927, "ott": 928, "Ġmen": 929, "Ġmany": 930, "air": 931, "ents": 932, "men": 933, "ner": 934, "ss": 935, "ian": 936, "ently": 937, "ĠProject": 938, "ew": 939, "ertain": 940, "ates": 941, "ĠWhale": 942, "iv": 943, "Ġtell": 944, "Ġapp": 945, "ished": 946, "aw": 947, "ched": 948, "su": 949, "was": 950, "Ġter": 951, "Ġwr": 952, "ery": 953, "Ġdoor": 954, "Ġappe": 955, "head": 956, "Ġwent": 957, "ĠThere": 958, "ĠGutenberg": 959, "And": 960, "you": 961, "ib": 962, "Ġright": 963, "ms": 964, "Ġmind": 965, "Ġonce": 966, "aking": 967, "ĠK": 968, "eth": 969, "lock": 970, "equeg": 971, "Ġfather": 972, "Ġho": 973, "perm": 974, "by": 975, "rest": 976, "ph": 977, "Ġnat": 978, "oth": 979, "Ġstran": 980, "ures": 981, "oub": 982, "ason": 983, "Ġear": 984, "ause": 985, "Ġface": 986, "Ġhard": 987, "Ġfar": 988, "Ġthing": 989, "Ġsmall": 990, "ial": 991, "king": 992, "ition": 993, "Ġlight": 994, "Ġget": 995, "Ġfew": 996, "Ġmor": 997, "ult": 998, "Ġmake": 999, "Ġcur": 1000, "ron": 1001, "Ġset": 1002, "lect": 1003, "Ġmon": 1004, "ical": 1005, "Ġseen": 1006, "ĠAhab": 1007, "ined": 1008, "Ġmatter": 1009, "Ġatt": 1010, "Ġsail": 1011, "Ġmom": 1012, "Ġheart": 1013, "Ġsec": 1014, "Ġsoon": 1015, "He": 1016, "Ġsur": 1017, "its": 1018, "sel": 1019, "Ġnothing": 1020, "Ġhapp": 1021, "Ġhands": 1022, "orr": 1023, "Ġhouse": 1024, "Ġsub": 1025, "thing": 1026, "ace": 1027, "Ġfind": 1028, "Ġinde": 1029, "Ġmean": 1030, "get": 1031, "Ġwa": 1032, "Ġsupp": 1033, "Ġcar": 1034, "ubb": 1035, "Ġtake": 1036, "Ġdon": 1037, "Ġamong": 1038, "read": 1039, "ĠWh": 1040, "lt": 1041, "Ġpur": 1042, "Ġev": 1043, "Ġnear": 1044, "Ġposs": 1045, "ower": 1046, "iss": 1047, "Ġcried": 1048, "bo": 1049, "ained": 1050, "ĠY": 1051, "Ġche": 1052, "sp": 1053, "ating": 1054, "ways": 1055, "ser": 1056, "Ġchan": 1057, "Ġcreat": 1058, "Ġcount": 1059, "Ġput": 1060, "Ġworld": 1061, "ider": 1062, "Ġalso": 1063, "co": 1064, "ces": 1065, "Ġref": 1066, "ĠFor": 1067, "Ġplace": 1068, "aid": 1069, "ash": 1070, "owing": 1071, "Ġreturn": 1072, "ract": 1073, "Ġexp": 1074, "Ġcle": 1075, "Ġem": 1076, "Ġte": 1077, "Ġlar": 1078, "ster": 1079, "onder": 1080, "Ġhowever": 1081, "Ġocc": 1082, "Ġdra": 1083, "Ġrest": 1084, "ross": 1085, "pped": 1086, "ody": 1087, "ple": 1088, "ru": 1089, "Ġsat": 1090, "ener": 1091, "What": 1092, "ual": 1093, "Ġsort": 1094, "ĠShe": 1095, "Ġtook": 1096, "Ġmoment": 1097, "ang": 1098, "which": 1099, "my": 1100, "haps": 1101, "Ġyoung": 1102, "Ġalmost": 1103, "Ġmar": 1104, "Ġleft": 1105, "Ġmorning": 1106, "ah": 1107, "Ġland": 1108, "Ġwhite": 1109, "ches": 1110, "rem": 1111, "Ġind": 1112, "Ġint": 1113, "lie": 1114, "ale": 1115, "lic": 1116, "pr": 1117, "ither": 1118, "aring": 1119, "Ġlo": 1120, "ĠV": 1121, "ense": 1122, "Ġco": 1123, "Ġtowards": 1124, "ction": 1125, "ĠQueequeg": 1126, "Ġsle": 1127, "Ġfell": 1128, "Ġindeed": 1129, "no": 1130, "now": 1131, "lack": 1132, "ween": 1133, "ured": 1134, "Ġfoll": 1135, "Ġcor": 1136, "Ġanother": 1137, "Ġconf": 1138, "Ġquite": 1139, "Ġbus": 1140, "Ġfull": 1141, "Ġcase": 1142, "ĠIf": 1143, "Ġrec": 1144, "ressed": 1145, "und": 1146, "Ġnew": 1147, "Ġlooked": 1148, "Wh": 1149, "fect": 1150, "ken": 1151, "Ġac": 1152, "ons": 1153, "Ġcertain": 1154, "val": 1155, "Ġtra": 1156, "Ġhum": 1157, "cei": 1158, "Ġvo": 1159, "Ġyears": 1160, "Ġair": 1161, "reet": 1162, "Ġcour": 1163, "Ġhalf": 1164, "ters": 1165, "ĠMy": 1166, "tle": 1167, "Ġbro": 1168, "arb": 1169, "ank": 1170, "uring": 1171, "Ġfelt": 1172, "Ġagainst": 1173, "vers": 1174, "Ġsun": 1175, "Ġdays": 1176, "Ġharpo": 1177, ",âĢĻ": 1178, "fort": 1179, "Ġsil": 1180, "ats": 1181, "ceed": 1182, "Ġvis": 1183, "Ġwhole": 1184, "oke": 1185, "Ġdoub": 1186, "ĠThis": 1187, "gg": 1188, "Ġdear": 1189, "Ġopen": 1190, "Ġsomething": 1191, "aut": 1192, "har": 1193, "Ġhour": 1194, "ĠĠĠĠ": 1195, "ised": 1196, "ute": 1197, "Ġste": 1198, "Ġrather": 1199, "Ġwater": 1200, "ude": 1201, "oud": 1202, "Ġwhom": 1203, "Ġans": 1204, "Ġdeath": 1205, "Ġwhales": 1206, "gr": 1207, "Ġpers": 1208, "Ġlay": 1209, "Ġeach": 1210, "dden": 1211, "ream": 1212, "Ġinter": 1213, "ask": 1214, "Ġcannot": 1215, "Ġremark": 1216, "ler": 1217, "light": 1218, "ye": 1219, "stand": 1220, "cept": 1221, "ĠAs": 1222, "Ġbed": 1223, "Ġinc": 1224, "Ġthings": 1225, "Ġstand": 1226, "ung": 1227, "Ġadd": 1228, "til": 1229, "vent": 1230, "Ġsin": 1231, "Ġple": 1232, "this": 1233, "lp": 1234, "Ġser": 1235, "Ġdark": 1236, "Ġinte": 1237, "Ġpoint": 1238, "cul": 1239, "ired": 1240, "entle": 1241, "Ġreason": 1242, "ĠCaptain": 1243, "Ġstrange": 1244, "Ġsk": 1245, "Ġname": 1246, "ides": 1247, "Ġsudden": 1248, "Ġpresent": 1249, "sc": 1250, "ĠU": 1251, "Ġcop": 1252, "Ġdeep": 1253, "Ġpoor": 1254, "Ġmin": 1255, "orn": 1256, "arr": 1257, "Ġgu": 1258, "Ġgive": 1259, "ains": 1260, "Ġalways": 1261, "Ġbetween": 1262, "ten": 1263, "Ġboth": 1264, "ĠStubb": 1265, "Ġconsider": 1266, "Ġsound": 1267, "oman": 1268, "ching": 1269, "Ġkind": 1270, "aken": 1271, "Ġcalled": 1272, "_.": 1273, "act": 1274, "hether": 1275, "Ġgot": 1276, "Ġenough": 1277, "Ġcontin": 1278, "Yes": 1279, "oul": 1280, "Ġfam": 1281, "ool": 1282, "ĠWe": 1283, "Ġhat": 1284, "ins": 1285, "Ġlove": 1286, "Ġdead": 1287, "like": 1288, "iet": 1289, "ying": 1290, "Ġuse": 1291, "Ġread": 1292, "No": 1293, "Oh": 1294, "full": 1295, "ater": 1296, "irc": 1297, "Ġfeet": 1298, "aught": 1299, "Ġwords": 1300, "Ġlarge": 1301, "Ġvoice": 1302, "Ġdoubt": 1303, "what": 1304, "nded": 1305, "Ġknew": 1306, "Ġpassed": 1307, "Ġbegan": 1308, "?âĢĻ": 1309, "There": 1310, "Ġdif": 1311, "ĠWhat": 1312, "Ġdoes": 1313, "arn": 1314, "any": 1315, "Ġhigh": 1316, "Ġreg": 1317, "Ġwithin": 1318, "Ġdev": 1319, "cer": 1320, "Ġwonder": 1321, "Ġbest": 1322, "Ġblack": 1323, "Ġgi": 1324, "Ġasked": 1325, "amp": 1326, "arted": 1327, "Ġshar": 1328, "side": 1329, "outh": 1330, "orm": 1331, "Ġdone": 1332, "Ġinv": 1333, "tern": 1334, "In": 1335, "mon": 1336, "Ġwal": 1337, "Ġmur": 1338, "eng": 1339, "Ġhaving": 1340, "Ġdep": 1341, "ump": 1342, "ĠGod": 1343, "overed": 1344, "ances": 1345, "pro": 1346, "vi": 1347, "Ġdet": 1348, "Ġnor": 1349, "ific": 1350, "ably": 1351, "Ġquest": 1352, "Ġperhaps": 1353, "gether": 1354, "Well": 1355, "az": 1356, "bed": 1357, "from": 1358, "iar": 1359, "oot": 1360, "Ġsight": 1361, "Ġbelie": 1362, "Ġact": 1363, "Ġide": 1364, "had": 1365, "ention": 1366, "Ġfear": 1367, "Ġext": 1368, "Ġinterest": 1369, "chan": 1370, "night": 1371, "Ġwant": 1372, "have": 1373, "Ġinf": 1374, "Ġhome": 1375, "Ġform": 1376, "Ġgoing": 1377, "Ġturned": 1378, "Ġinstant": 1379, "Ġfore": 1380, "Ġel": 1381, "Ġgentle": 1382, "ement": 1383, "ĠThey": 1384, "ually": 1385, "Ġhelp": 1386, "used": 1387, "Ġuntil": 1388, "Ġbusiness": 1389, "af": 1390, "osed": 1391, "Ġeye": 1392, "Ġsing": 1393, "Ġwood": 1394, "iting": 1395, "Ġfin": 1396, "Ġgener": 1397, "ceived": 1398, "Ġcourse": 1399, "oun": 1400, "Ġdro": 1401, "arm": 1402, "Ġless": 1403, "Ġhear": 1404, "Ġass": 1405, "ĠTh": 1406, "though": 1407, "ucket": 1408, "ship": 1409, "Ġbetter": 1410, "xt": 1411, "Ġsir": 1412, "Ġmark": 1413, "veral": 1414, "room": 1415, "ĠSo": 1416, "ately": 1417, "Ġwhose": 1418, "Ġfact": 1419, "Ġadv": 1420, "Ġobser": 1421, "fully": 1422, "where": 1423, "Ġdest": 1424, "Ġhold": 1425, "Ġbeh": 1426, "Ġchild": 1427, "Ġhope": 1428, "ee": 1429, "Ġbody": 1430, "Ġdire": 1431, "ird": 1432, "there": 1433, "form": 1434, "ready": 1435, "Ġhur": 1436, "Ġsure": 1437, "equod": 1438, "Ġsleep": 1439, "cess": 1440, "Ġsign": 1441, "Ġsoul": 1442, "Ġmo": 1443, "Ġcra": 1444, "ribut": 1445, "itted": 1446, "lose": 1447, "Ġkeep": 1448, "Ġri": 1449, "Ġfour": 1450, "ingly": 1451, "Ġoften": 1452, "Ġprof": 1453, "Ġsince": 1454, "This": 1455, "day": 1456, "ys": 1457, "Ġph": 1458, "Ġgave": 1459, "ĠThen": 1460, "akes": 1461, "lied": 1462, "My": 1463, "That": 1464, "aven": 1465, "ience": 1466, "Ġtill": 1467, "ural": 1468, "Ġrun": 1469, "ages": 1470, "ĠEng": 1471, "ĠKing": 1472, "Ġpleas": 1473, "uff": 1474, "Ġthus": 1475, "ĠSperm": 1476, "ĠHow": 1477, "Ġbecame": 1478, "ring": 1479, "reak": 1480, "ĠHis": 1481, "Ġsuff": 1482, "Ġalong": 1483, "tered": 1484, "iew": 1485, "ople": 1486, "Ġcountry": 1487, "cri": 1488, "him": 1489, "long": 1490, "Ġtimes": 1491, "itude": 1492, "Ġfire": 1493, "ided": 1494, "ĠAt": 1495, "Ġtal": 1496, "Ġsy": 1497, "Ġwhether": 1498, "Ġmad": 1499, "ister": 1500, "als": 1501, "Ġstep": 1502, "selves": 1503, "du": 1504, "go": 1505, "ts": 1506, "ident": 1507, "ney": 1508, "Ġchar": 1509, "rent": 1510, "Ġdeck": 1511, "ĠWhen": 1512, "ushed": 1513, "Ġlooking": 1514, "Ġworks": 1515, "br": 1516, "Ġir": 1517, "Ġswe": 1518, "Ġcab": 1519, "Ġtold": 1520, "leg": 1521, "Ġpa": 1522, "Ġeas": 1523, "rie": 1524, "ĠThat": 1525, "Ġtrue": 1526, "ronic": 1527, "Ġclear": 1528, "Ġhuman": 1529, "arbuck": 1530, "fic": 1531, "Ġwild": 1532, "Ġwhy": 1533, "Ġleast": 1534, "itting": 1535, "ached": 1536, "Ġremem": 1537, "Ġbrought": 1538, "clud": 1539, "We": 1540, "app": 1541, "erable": 1542, "ising": 1543, "Ġcirc": 1544, "lled": 1545, "ans": 1546, "Ġprom": 1547, "uth": 1548, "herlock": 1549, "Ġhardly": 1550, "bit": 1551, "vious": 1552, "Ġtaken": 1553, "Ġwish": 1554, "ering": 1555, "Ġfur": 1556, "Ġbeaut": 1557, "Ġthou": 1558, "Ġalone": 1559, "Ġanything": 1560, "Ġspir": 1561, "Ġquick": 1562, "Ġstrong": 1563, "Ġfellow": 1564, "cla": 1565, "dis": 1566, "ec": 1567, "how": 1568, "ier": 1569, "Ġcare": 1570, "Ġclose": 1571, "Ġgone": 1572, "empt": 1573, "antucket": 1574, "Ġlive": 1575, "ĠPequod": 1576, "Ġidea": 1577, "acc": 1578, "Ġes": 1579, "Ġins": 1580, "arch": 1581, "icular": 1582, "Ġgre": 1583, "Ġstood": 1584, "Ġseveral": 1585, "illed": 1586, "Ġperson": 1587, "she": 1588, "ued": 1589, "zab": 1590, "Ġbene": 1591, "Ġcut": 1592, "Ġitself": 1593, "ils": 1594, "lizab": 1595, "Ġarm": 1596, "ments": 1597, "oyage": 1598, "ĠJon": 1599, "Ġharpoone": 1600, "Ġcopy": 1601, "lizabeth": 1602, "ug": 1603, "Ġsim": 1604, "Ġduring": 1605, "ative": 1606, "Ġhor": 1607, "Ġeff": 1608, "Ġherself": 1609, "Ġabs": 1610, "ĠFl": 1611, "culiar": 1612, "ient": 1613, "ls": 1614, "yed": 1615, "your": 1616, "Ġtran": 1617, "iled": 1618, "ief": 1619, "Ġcomple": 1620, "Ġobject": 1621, "Then": 1622, "wor": 1623, "when": 1624, "Ġ*": 1625, "Ġwoman": 1626, "Ġfree": 1627, "Ġlaw": 1628, "âĢĶ_": 1629, "Ġnext": 1630, "Ġwindow": 1631, "Ġearth": 1632, "ength": 1633, "St": 1634, "would": 1635, "Ġflo": 1636, "Ġcal": 1637, "Ġstory": 1638, "Ġknown": 1639, "ĠDo": 1640, "Ġquestion": 1641, "As": 1642, "ities": 1643, "Ġlady": 1644, "ĠAr": 1645, "umb": 1646, "Ġyourself": 1647, "ĠStarbuck": 1648, "Ġseems": 1649, "Ġblood": 1650, "Ġentire": 1651, "Ġut": 1652, "oured": 1653, "Ġmount": 1654, "eness": 1655, "Ġhun": 1656, "Ġalready": 1657, "ĠNow": 1658, "ĠOn": 1659, "Ġbecause": 1660, "Ġsometimes": 1661, "Ġnature": 1662, "lectronic": 1663, "wer": 1664, "Ġtri": 1665, "Ġtable": 1666, "Ġaw": 1667, "Ġmid": 1668, "Ġbur": 1669, "Ġcol": 1670, "ane": 1671, "Ġlist": 1672, "Ġlost": 1673, "raph": 1674, "ousand": 1675, "aged": 1676, "appe": 1677, "Ġappeared": 1678, "Ġbehind": 1679, "!âĢĻ": 1680, "Now": 1681, "will": 1682, "iter": 1683, "Ġreally": 1684, "Ġconcer": 1685, "ards": 1686, "Ġarri": 1687, "Ġappear": 1688, "fortun": 1689, "Ġsuddenly": 1690, "How": 1691, "ĊĊĠ": 1692, "Ġ2": 1693, "inted": 1694, "Ġmet": 1695, "ilt": 1696, "Ġview": 1697, "Ġleg": 1698, "ĠNantucket": 1699, "wered": 1700, "Ġwhaling": 1701, "cast": 1702, "ob": 1703, "over": 1704, "Ġtre": 1705, "Ġsens": 1706, "Ġbit": 1707, "Ġcond": 1708, "Ġpower": 1709, "Ġstri": 1710, "Ġshort": 1711, "ush": 1712, "oney": 1713, "Ġeng": 1714, "Ġpeople": 1715, "Ġaccount": 1716, "rence": 1717, "ixed": 1718, "Ġcreature": 1719, "do": 1720, "look": 1721, "whale": 1722, "Ġtou": 1723, "nding": 1724, "Ġfish": 1725, "Ġlow": 1726, "Ġline": 1727, "Ġlength": 1728, "utes": 1729, "rible": 1730, "thy": 1731, "Ġprov": 1732, "Ġused": 1733, "aving": 1734, "cent": 1735, "eav": 1736, "use": 1737, "Ġsn": 1738, "isher": 1739, "Ġcold": 1740, "Ġcrew": 1741, "Ġpol": 1742, "Ġhorr": 1743, "Ġheav": 1744, "ĠMiss": 1745, "pping": 1746, "Ġexam": 1747, "Ġspeak": 1748, "Ġunderstand": 1749, "ĊĠĠĠĠĠĠĠ": 1750, "atson": 1751, "ape": 1752, "ĠâĢĻ": 1753, "ĠâĢĶ_": 1754, "Ġdri": 1755, "âĢĶâĢĿ": 1756, "rying": 1757, "Ġdisc": 1758, "Ġcompan": 1759, "retched": 1760, "Ġsecond": 1761, "kn": 1762, "mb": 1763, "under": 1764, "Ġcaptain": 1765, "Ġtor": 1766, "Ġrel": 1767, "Ġsol": 1768, "Ġexpl": 1769, "Ġmanner": 1770, "Ġleave": 1771, "Ġneed": 1772, "ĠPe": 1773, "Ġground": 1774, "Ġplay": 1775, "Ġterms": 1776, "Ġbelieve": 1777, "cy": 1778, "well": 1779, "ern": 1780, "Ġpar": 1781, "cket": 1782, "ĠCh": 1783, "ection": 1784, "ield": 1785, "ĠElizabeth": 1786, "Ġpossible": 1787, "Th": 1788, "cha": 1789, "pose": 1790, "ines": 1791, "Ġson": 1792, "athan": 1793, "imp": 1794, "ury": 1795, "ames": 1796, "umst": 1797, "ager": 1798, "Ġaffect": 1799, "iously": 1800, "Ġimag": 1801, "ledge": 1802, "ildad": 1803, "Ġprec": 1804, "Ġpeculiar": 1805, "Ġmeans": 1806, "Ġanswered": 1807, "ĠJonah": 1808, "ĠFlask": 1809, "ia": 1810, "ned": 1811, "ont": 1812, "Ġfall": 1813, "Ġtogether": 1814, "Ġhair": 1815, "Ġgra": 1816, "Ġran": 1817, "ected": 1818, "Ġspoke": 1819, "Ġboats": 1820, "ĠQueen": 1821, "ront": 1822, "Ġhours": 1823, "viathan": 1824, "Ġelse": 1825, "),": 1826, "some": 1827, "Ġwife": 1828, "ĠInd": 1829, "enty": 1830, "cean": 1831, "Ġsum": 1832, "Ġtherefore": 1833, "upon": 1834, "Ġslow": 1835, "Ġmonth": 1836, "Ġdraw": 1837, "Ġten": 1838, "Ġmouth": 1839, "Ġgir": 1840, "Ġred": 1841, "iles": 1842, "iful": 1843, "ĠWatson": 1844, "ĠNo": 1845, "ancy": 1846, "Ġfriends": 1847, "board": 1848, "ging": 1849, "low": 1850, "ped": 1851, "round": 1852, "inct": 1853, "Ġsent": 1854, "Ġfoot": 1855, "Ġcap": 1856, "Ġdread": 1857, "Ġforth": 1858, "ĠTur": 1859, "ĠAn": 1860, "oundation": 1861, "ĠOh": 1862, "apers": 1863, "ford": 1864, "Ġscene": 1865, "ized": 1866, "Ġsurpr": 1867, "Ġacross": 1868, "Ġgiven": 1869, "Alice": 1870, "bs": 1871, "des": 1872, "lish": 1873, "pair": 1874, "Ġill": 1875, "Ġsperm": 1876, "Ġbound": 1877, "Ġbook": 1878, "Ġbreak": 1879, "ony": 1880, "Ġcott": 1881, "Ġpain": 1882, "ically": 1883, "str": 1884, "Ġorder": 1885, "Ġabove": 1886, "ĠLe": 1887, "were": 1888, "ferent": 1889, "Ġentered": 1890, "undred": 1891, "gin": 1892, "mp": 1893, "pre": 1894, "pla": 1895, "ones": 1896, "Ġfront": 1897, "Ġeither": 1898, "they": 1899, "Ġvoyage": 1900, "Ġcertainly": 1901, "Ġremarked": 1902, "Ġdirect": 1903, "Ġbott": 1904, "Ġpull": 1905, "Ġthousand": 1906, "riage": 1907, "oose": 1908, "ession": 1909, "iling": 1910, "ility": 1911, "Ġlearn": 1912, "osition": 1913, "Ġchair": 1914, "Ġnearly": 1915, "Why": 1916, "can": 1917, "spe": 1918, "ught": 1919, "ination": 1920, "ison": 1921, "Ġce": 1922, "Ġcause": 1923, "esides": 1924, "att": 1925, "aster": 1926, "Ġhon": 1927, "Ġlau": 1928, "Ġele": 1929, "ots": 1930, "Ġglo": 1931, "Ġcoming": 1932, "Ġjoy": 1933, "ĠFoundation": 1934, "Ġfeelings": 1935, "meric": 1936, "Ġcurious": 1937, "Ġvisit": 1938, "Ġminutes": 1939, "_,": 1940, "more": 1941, "sha": 1942, "wise": 1943, "inc": 1944, "hand": 1945, "essel": 1946, "ased": 1947, "ste": 1948, "idence": 1949, "Ġstate": 1950, "essed": 1951, "ously": 1952, "Ġvar": 1953, "Ġvessel": 1954, "Ġprot": 1955, "Ġcommon": 1956, "ibly": 1957, "ĠPeleg": 1958, "ipe": 1959, "iol": 1960, "Ġed": 1961, "Ġsit": 1962, "Ġsister": 1963, "Ġca": 1964, "Ġtown": 1965, "Ġdream": 1966, "Ġport": 1967, "Ġnarr": 1968, "Ġheaven": 1969, "ety": 1970, "Ġstra": 1971, "Ġmere": 1972, "Ġang": 1973, "âĢĶâĢľ": 1974, "ĠBildad": 1975, "umber": 1976, "Ġquiet": 1977, "Ġboard": 1978, "Ġoffic": 1979, "Ġplain": 1980, "ĠWhite": 1981, "Qu": 1982, "could": 1983, "ole": 1984, "ray": 1985, "ton": 1986, "vol": 1987, "Ġice": 1988, "Ġsqu": 1989, "Ġopp": 1990, "erm": 1991, "Ġmag": 1992, "Ġmine": 1993, "atch": 1994, "Ġelectronic": 1995, "Ġstart": 1996, "Ġwee": 1997, "Ġmeet": 1998, "Ġsuper": 1999}, "merges": [["Ġ", "t"], ["h", "e"], ["Ġ", "a"], ["i", "n"], ["Ġt", "he"], ["Ġ", "s"], ["Ġ", "w"], ["Ġ", "o"], ["r", "e"], ["h", "a"], ["n", "d"], ["e", "r"], ["â", "Ģ"], ["o", "u"], ["Ġ", "m"], ["e", "d"], ["Ġ", "b"], ["i", "s"], ["i", "t"], ["o", "n"], ["e", "n"], ["Ġ", "f"], ["Ġ", "c"], ["in", "g"], ["Ġo", "f"], ["Ġa", "nd"], ["e", "s"], ["Ġt", "o"], ["o", "r"], ["Ġ", "d"], ["Ġ", "in"], ["l", "l"], ["a", "t"], ["a", "r"], ["a", "s"], ["Ġ", "I"], ["l", "e"], ["a", "n"], ["Ġ", "p"], ["Ġ", "h"], ["ha", "t"], ["o", "m"], ["Ġ", "n"], ["Ġ", "l"], ["Ġ", "ha"], ["Ġ", "he"], ["i", "c"], ["o", "w"], ["u", "t"], ["âĢ", "ľ"], ["Ġb", "e"], ["s", "t"], ["Ġ", "y"], ["l", "y"], ["Ġt", "h"], ["âĢ", "Ŀ"], ["Ġ", "e"], ["o", "t"], ["Ġt", "hat"], ["s", "e"], ["v", "e"], ["i", "d"], ["Ġ", "g"], ["g", "h"], ["i", "m"], ["l", "d"], ["Ġ", "it"], ["v", "er"], ["Ġ", "u"], ["Ġy", "ou"], ["en", "t"], ["Ġw", "as"], ["âĢ", "Ļ"], ["c", "e"], ["i", "on"], ["it", "h"], ["Ġo", "n"], ["Ġw", "h"], ["e", "t"], ["Ġ", "re"], ["u", "r"], ["Ġh", "is"], ["a", "l"], ["a", "y"], ["Ġm", "y"], ["Ġw", "ith"], ["Ġa", "s"], ["r", "o"], ["a", "d"], ["i", "r"], ["gh", "t"], ["Ġf", "or"], ["Ġ", "is"], ["Ġs", "t"], ["r", "i"], ["c", "t"], ["he", "r"], ["Ġw", "e"], ["Ġs", "e"], ["Ġm", "e"], ["Ġa", "n"], ["a", "in"], ["Ġn", "ot"], ["Ġa", "t"], ["ou", "ld"], ["Ġs", "a"], ["t", "er"], ["c", "h"], ["Ġ", "T"], ["o", "o"], ["Ġha", "d"], ["a", "nd"], ["c", "k"], ["k", "e"], ["es", "s"], ["Ġ", "A"], ["i", "l"], ["re", "d"], ["i", "ll"], ["a", "m"], ["ic", "h"], ["Ġ", "S"], ["Ġs", "o"], ["i", "f"], ["r", "om"], ["Ġ", "H"], [".", "âĢĿ"], ["o", "re"], ["Ġs", "u"], ["Ġu", "p"], ["Ġha", "ve"], ["t", "h"], ["a", "ll"], ["q", "u"], ["r", "a"], ["Ġa", "ll"], ["p", "e"], ["Ġb", "ut"], ["i", "ght"], ["g", "e"], ["Ġth", "is"], ["Ġd", "e"], ["Ġ", "âĢľ"], ["Ġwh", "ich"], ["t", "he"], ["om", "e"], ["a", "b"], ["Ġs", "h"], ["âĢ", "Ķ"], ["Ġh", "im"], ["Ġb", "y"], ["u", "l"], ["Ġf", "rom"], ["t", "o"], ["he", "n"], ["o", "l"], ["ou", "s"], ["Ġc", "on"], ["Ġ", "v"], ["es", "t"], ["Ġ", "M"], ["ver", "y"], ["ar", "d"], ["Ġ", "W"], ["e", "m"], ["re", "s"], ["ou", "nd"], ["p", "p"], ["Ġ", "r"], ["Ġo", "r"], ["Ġhe", "r"], ["Ġsa", "id"], ["Ġ", "B"], ["as", "t"], ["at", "ion"], ["in", "d"], ["u", "n"], ["Ġf", "e"], ["u", "s"], [",", "âĢĿ"], ["ĠT", "he"], ["Ġd", "o"], ["Ġe", "x"], ["u", "st"], ["Ġm", "an"], ["Ġ", "k"], ["an", "t"], ["l", "f"], ["Ġon", "e"], ["ou", "r"], ["ou", "t"], ["er", "s"], ["Ġ", "le"], ["Ġs", "he"], ["Ġwe", "re"], ["on", "g"], ["Ġn", "e"], ["ar", "t"], ["on", "e"], ["is", "t"], ["Ġa", "l"], ["ow", "n"], ["ha", "n"], ["Ġn", "o"], ["u", "m"], ["ha", "le"], ["Ġl", "i"], ["at", "e"], ["ic", "e"], ["e", "l"], ["Ġu", "n"], ["Ġthe", "re"], ["Ġwh", "o"], ["Ġ", "C"], ["e", "ct"], ["it", "t"], ["Ġa", "re"], ["Ġw", "hen"], ["ou", "gh"], ["o", "st"], ["Ġyou", "r"], ["l", "a"], ["Ġw", "or"], ["oo", "k"], ["Ġup", "on"], ["Ġo", "ut"], ["or", "t"], ["a", "k"], ["re", "at"], ["p", "t"], ["Ġc", "om"], ["Ġ", "P"], ["o", "s"], ["ab", "le"], ["se", "lf"], ["oo", "d"], ["a", "g"], ["Ġa", "b"], ["?", "âĢĿ"], ["u", "re"], ["Ġs", "ome"], ["p", "er"], ["t", "her"], ["i", "ve"], ["Ġk", "n"], ["Ġw", "ould"], ["Ġbe", "en"], ["id", "e"], ["i", "g"], ["Ġ", "j"], ["v", "en"], ["o", "d"], ["he", "d"], ["l", "o"], ["Ġa", "g"], ["e", "ll"], ["Ġin", "to"], ["l", "i"], ["Ġ", "F"], ["Ġthe", "y"], ["Ġw", "hat"], ["Ġ", "G"], ["Ġ", "very"], ["u", "e"], ["Ġp", "ro"], ["Ġthe", "n"], ["Ġan", "y"], ["i", "p"], ["v", "ed"], ["n", "t"], ["is", "h"], ["Ġs", "p"], ["f", "ore"], ["Ġw", "ill"], ["in", "e"], ["Ġc", "an"], ["o", "f"], ["it", "y"], ["Ġ", "qu"], ["Ġn", "ow"], ["he", "re"], ["e", "p"], ["am", "e"], ["Ġa", "m"], ["it", "e"], ["r", "y"], ["Ċ", "Ġ"], ["c", "c"], ["Ġm", "ore"], ["ur", "n"], ["Ġw", "hale"], ["âĢ", "ĺ"], ["t", "e"], ["Ġ", "if"], ["Ġ", "D"], ["an", "ce"], ["as", "s"], ["Ġo", "ver"], ["Ġthe", "m"], ["Ġc", "ould"], ["Ġs", "ha"], ["im", "e"], ["Ġthe", "ir"], ["b", "er"], ["in", "k"], ["b", "le"], ["itt", "le"], ["Ġo", "ther"], ["d", "e"], ["Ġ", "ro"], ["ar", "k"], ["Ġa", "f"], ["i", "ous"], ["Ġ", "L"], ["o", "se"], ["i", "es"], ["o", "nd"], ["en", "ce"], ["ou", "ght"], ["!", "âĢĿ"], ["Ġd", "own"], ["Ġu", "s"], ["ĠH", "e"], ["a", "ke"], ["Ġli", "ke"], ["all", "y"], ["ing", "s"], ["a", "re"], ["Ġ", "im"], ["b", "e"], ["Ġl", "ittle"], ["a", "c"], ["w", "ay"], ["Ġse", "e"], ["a", "ge"], ["Ġ", "N"], ["at", "her"], ["w", "n"], ["w", "e"], ["h", "ing"], ["Ġa", "r"], ["r", "an"], ["ĠB", "ut"], ["re", "e"], ["ĠS", "t"], ["Ġ", "en"], ["i", "e"], ["n", "ess"], ["Ġha", "s"], ["a", "ck"], ["Ġg", "o"], ["T", "he"], ["Ġt", "w"], ["Ġha", "nd"], ["i", "re"], ["o", "p"], ["ĠI", "t"], ["Ġon", "ly"], ["Ġsh", "ould"], ["at", "ed"], ["Ġt", "han"], ["m", "e"], ["Ġab", "out"], ["Ġb", "o"], ["ou", "nt"], ["l", "ed"], ["Ġf", "a"], ["Ġy", "e"], ["Ġag", "ain"], ["ar", "s"], ["Ġh", "ow"], ["u", "ll"], ["Ġre", "m"], ["Ġkn", "ow"], ["Ġm", "ay"], ["res", "s"], ["Ġ", "O"], ["Ġo", "ur"], ["Ġd", "id"], ["Ġp", "er"], ["a", "p"], ["h", "is"], ["Y", "ou"], ["v", "ing"], ["Ġt", "ime"], ["Ġl", "ook"], ["Ġit", "s"], ["j", "ect"], ["w", "ard"], ["Ġbe", "fore"], ["u", "ch"], ["ic", "k"], ["Ġse", "em"], ["a", "u"], ["m", "es"], ["n", "ing"], ["m", "ent"], ["Ġd", "is"], ["i", "le"], ["Ġ", "E"], ["ol", "mes"], ["l", "ess"], ["ri", "ght"], ["e", "ver"], ["u", "d"], ["Ġsu", "ch"], ["ad", "e"], ["Ġm", "ust"], ["o", "ve"], ["Ġof", "f"], ["v", "es"], ["t", "ed"], ["ion", "s"], ["f", "or"], ["Ġa", "d"], ["m", "an"], ["n", "g"], ["ri", "ed"], ["Ġcom", "p"], ["l", "es"], ["Ġb", "r"], ["ir", "st"], ["Ġd", "ay"], ["Ġp", "o"], ["Ġthe", "se"], ["is", "e"], ["Ġha", "r"], ["f", "f"], ["Ġg", "reat"], ["l", "ice"], ["Ġt", "r"], ["Ġs", "ay"], ["o", "ld"], ["nd", "er"], ["f", "ul"], ["Ġl", "ong"], ["n", "e"], ["t", "hat"], ["Ġ", "R"], ["ĠH", "olmes"], ["Ġm", "ight"], ["Ġe", "y"], ["l", "ing"], ["Ġs", "m"], ["ar", "y"], ["c", "ed"], ["Ġto", "o"], ["Ġo", "ld"], ["Ġg", "r"], ["if", "e"], ["Ġs", "c"], ["Ġhe", "ad"], ["Ġth", "r"], ["e", "nd"], ["s", "o"], ["at", "h"], ["i", "ld"], ["Ġc", "ha"], ["u", "b"], ["Ġaf", "ter"], ["Ġo", "wn"], ["Ġ", "_"], ["Ġo", "b"], ["Ġth", "ought"], ["Ġy", "et"], ["ot", "her"], ["Ġsh", "ip"], ["Ġp", "re"], ["Ġb", "l"], ["Ġd", "es"], ["Ġm", "ost"], ["u", "ck"], ["Ġw", "ay"], ["o", "ll"], ["Ġp", "art"], ["Ġc", "h"], ["Ġwor", "k"], ["t", "ain"], ["Ġtw", "o"], ["Ġe", "very"], ["w", "h"], ["or", "d"], ["Ġp", "l"], ["Ġth", "ink"], ["Ġm", "uch"], ["Ġf", "irst"], ["o", "y"], ["Ġc", "l"], ["Ġ", "Ġ"], ["p", "s"], ["at", "ter"], ["I", "t"], ["ĠA", "lice"], ["ĠM", "r"], ["ĠA", "nd"], ["Ġp", "ass"], ["âĢľ", "âĢĺ"], ["Ġth", "ose"], ["Ġne", "ver"], ["a", "ch"], ["i", "ly"], ["e", "qu"], ["s", "h"], ["Ġw", "here"], ["ou", "se"], ["os", "s"], ["Ġsha", "ll"], ["en", "ed"], ["in", "t"], ["f", "e"], ["n", "ot"], ["an", "c"], ["Ġb", "ack"], ["or", "y"], ["Ġp", "e"], ["Ġe", "ven"], ["Ġ", "ent"], ["om", "et"], ["Ġcon", "t"], ["Ġ", "J"], ["as", "e"], ["ig", "n"], ["a", "ve"], ["Ċ", "Ċ"], ["Ġw", "at"], ["Ġhe", "re"], ["Ġim", "p"], ["E", "R"], ["f", "t"], ["Ġl", "ast"], ["Ġse", "a"], ["c", "on"], ["Ġe", "nd"], ["a", "pt"], ["k", "ed"], ["Ġm", "ade"], ["Ġf", "ound"], ["Ġst", "ill"], ["he", "s"], ["Ġa", "cc"], ["Ġbe", "ing"], ["t", "y"], ["ad", "y"], ["ber", "g"], ["Ġe", "ver"], ["Ġcon", "s"], ["c", "l"], ["ut", "en"], ["Q", "ue"], ["b", "ut"], ["Ġs", "pe"], ["Ġg", "l"], ["Ġg", "ood"], ["p", "o"], ["c", "i"], ["ation", "s"], ["i", "ed"], ["Ġc", "ame"], ["Ġc", "ome"], ["Ġp", "la"], ["uten", "berg"], ["Ġt", "urn"], ["i", "ble"], ["p", "l"], ["Ġwe", "ll"], ["Ġey", "es"], ["Ġu", "nder"], ["ri", "end"], ["Ġseem", "ed"], ["H", "A"], ["a", "red"], ["Ġd", "ist"], ["m", "ost"], ["en", "s"], ["im", "es"], ["B", "ut"], ["Ġc", "r"], ["Ġbe", "c"], ["Ġ", "âĢĺ"], ["Ġbe", "g"], ["a", "v"], ["pe", "ct"], ["Ġa", "way"], ["Ġo", "p"], ["T", "ER"], ["Ġa", "p"], ["ha", "b"], ["Ġp", "res"], ["Ġre", "s"], ["Ġw", "ha"], ["Ġthr", "ough"], ["Ġbe", "t"], ["apt", "ain"], ["g", "ed"], ["Ġ", "ra"], ["Ġp", "r"], ["o", "ck"], ["Ġsa", "me"], ["Ġin", "st"], ["t", "ing"], ["Ġ", "ke"], ["Ġwh", "ile"], ["Ġj", "ust"], ["Ġst", "r"], ["ĊĠ", "ĠĠ"], ["P", "TER"], ["HA", "PTER"], ["ro", "ject"], ["l", "and"], ["re", "t"], ["Ġn", "ight"], ["or", "s"], ["Ġr", "ound"], ["Ġs", "w"], ["Ġhe", "ard"], ["Ġc", "all"], ["Ġth", "ough"], ["ward", "s"], ["re", "w"], ["Ġsa", "w"], ["e", "red"], ["Ġs", "ide"], ["Ġl", "ife"], [".", "âĢĻ"], ["e", "g"], ["Ġre", "t"], ["Ġcom", "m"], ["i", "gh"], ["m", "ed"], ["u", "p"], ["c", "om"], ["Ġ", "You"], ["ow", "ed"], ["Ġth", "ree"], ["Ġmy", "self"], ["Ġle", "t"], ["Ġbo", "at"], ["ow", "s"], ["Ġwor", "d"], ["Ġw", "ind"], ["Ġf", "riend"], ["Ġ", "Que"], ["Ġm", "is"], ["o", "g"], ["in", "ess"], ["Ġfe", "el"], ["a", "il"], ["Ġ", "1"], ["re", "n"], ["d", "en"], ["w", "ith"], ["i", "x"], ["ĠI", "n"], ["Ġwith", "out"], ["ul", "ar"], ["d", "er"], ["Ġs", "omet"], ["Ġf", "l"], ["Ġhim", "self"], ["m", "er"], ["it", "ed"], ["en", "e"], ["ic", "t"], ["Ġro", "om"], ["C", "HAPTER"], ["g", "er"], ["i", "z"], ["Ġ", "("], ["e", "x"], ["k", "s"], ["Ġre", "p"], ["Ġs", "l"], ["ot", "t"], ["Ġm", "en"], ["Ġman", "y"], ["a", "ir"], ["ent", "s"], ["m", "en"], ["n", "er"], ["s", "s"], ["i", "an"], ["ent", "ly"], ["ĠP", "roject"], ["e", "w"], ["er", "tain"], ["at", "es"], ["ĠW", "hale"], ["i", "v"], ["Ġt", "ell"], ["Ġa", "pp"], ["is", "hed"], ["a", "w"], ["c", "hed"], ["s", "u"], ["w", "as"], ["Ġt", "er"], ["Ġw", "r"], ["er", "y"], ["Ġdo", "or"], ["Ġap", "pe"], ["he", "ad"], ["Ġw", "ent"], ["ĠThe", "re"], ["ĠG", "utenberg"], ["A", "nd"], ["y", "ou"], ["i", "b"], ["Ġ", "right"], ["m", "s"], ["Ġm", "ind"], ["Ġon", "ce"], ["ak", "ing"], ["Ġ", "K"], ["et", "h"], ["lo", "ck"], ["equ", "eg"], ["Ġf", "ather"], ["Ġh", "o"], ["per", "m"], ["b", "y"], ["re", "st"], ["p", "h"], ["Ġn", "at"], ["ot", "h"], ["Ġst", "ran"], ["u", "res"], ["ou", "b"], ["as", "on"], ["Ġe", "ar"], ["au", "se"], ["Ġfa", "ce"], ["Ġhar", "d"], ["Ġf", "ar"], ["Ġth", "ing"], ["Ġsm", "all"], ["i", "al"], ["k", "ing"], ["it", "ion"], ["Ġl", "ight"], ["Ġg", "et"], ["Ġfe", "w"], ["Ġm", "or"], ["ul", "t"], ["Ġm", "ake"], ["Ġc", "ur"], ["r", "on"], ["Ġs", "et"], ["le", "ct"], ["Ġm", "on"], ["ic", "al"], ["Ġse", "en"], ["ĠA", "hab"], ["in", "ed"], ["Ġm", "atter"], ["Ġat", "t"], ["Ġsa", "il"], ["Ġm", "om"], ["Ġhe", "art"], ["Ġse", "c"], ["Ġso", "on"], ["H", "e"], ["Ġs", "ur"], ["it", "s"], ["se", "l"], ["Ġnot", "hing"], ["Ġha", "pp"], ["Ġhand", "s"], ["or", "r"], ["Ġh", "ouse"], ["Ġsu", "b"], ["th", "ing"], ["a", "ce"], ["Ġf", "ind"], ["Ġin", "de"], ["Ġme", "an"], ["g", "et"], ["Ġw", "a"], ["Ġsu", "pp"], ["Ġc", "ar"], ["ub", "b"], ["Ġt", "ake"], ["Ġd", "on"], ["Ġam", "ong"], ["re", "ad"], ["ĠW", "h"], ["l", "t"], ["Ġp", "ur"], ["Ġe", "v"], ["Ġne", "ar"], ["Ġp", "oss"], ["ow", "er"], ["is", "s"], ["Ġc", "ried"], ["b", "o"], ["ain", "ed"], ["Ġ", "Y"], ["Ġc", "he"], ["s", "p"], ["at", "ing"], ["way", "s"], ["s", "er"], ["Ġc", "han"], ["Ġc", "reat"], ["Ġc", "ount"], ["Ġp", "ut"], ["Ġwor", "ld"], ["id", "er"], ["Ġal", "so"], ["c", "o"], ["c", "es"], ["Ġre", "f"], ["ĠF", "or"], ["Ġpla", "ce"], ["a", "id"], ["as", "h"], ["ow", "ing"], ["Ġret", "urn"], ["ra", "ct"], ["Ġex", "p"], ["Ġc", "le"], ["Ġe", "m"], ["Ġt", "e"], ["Ġl", "ar"], ["st", "er"], ["ond", "er"], ["Ġhow", "ever"], ["Ġo", "cc"], ["Ġd", "ra"], ["Ġre", "st"], ["ro", "ss"], ["pp", "ed"], ["od", "y"], ["p", "le"], ["r", "u"], ["Ġs", "at"], ["en", "er"], ["W", "hat"], ["u", "al"], ["Ġs", "ort"], ["ĠS", "he"], ["Ġtoo", "k"], ["Ġmom", "ent"], ["an", "g"], ["wh", "ich"], ["m", "y"], ["ha", "ps"], ["Ġyou", "ng"], ["Ġal", "most"], ["Ġm", "ar"], ["Ġle", "ft"], ["Ġmor", "ning"], ["a", "h"], ["Ġl", "and"], ["Ġwh", "ite"], ["c", "hes"], ["re", "m"], ["Ġin", "d"], ["Ġin", "t"], ["li", "e"], ["a", "le"], ["l", "ic"], ["p", "r"], ["it", "her"], ["ar", "ing"], ["Ġl", "o"], ["Ġ", "V"], ["en", "se"], ["Ġc", "o"], ["Ġto", "wards"], ["ct", "ion"], ["ĠQue", "equeg"], ["Ġs", "le"], ["Ġfe", "ll"], ["Ġinde", "ed"], ["n", "o"], ["n", "ow"], ["la", "ck"], ["we", "en"], ["u", "red"], ["Ġf", "oll"], ["Ġc", "or"], ["Ġan", "other"], ["Ġcon", "f"], ["Ġqu", "ite"], ["Ġb", "us"], ["Ġf", "ull"], ["Ġc", "ase"], ["ĠI", "f"], ["Ġre", "c"], ["ress", "ed"], ["u", "nd"], ["Ġne", "w"], ["Ġlook", "ed"], ["W", "h"], ["f", "ect"], ["k", "en"], ["Ġa", "c"], ["on", "s"], ["Ġc", "ertain"], ["v", "al"], ["Ġt", "ra"], ["Ġh", "um"], ["ce", "i"], ["Ġv", "o"], ["Ġye", "ars"], ["Ġa", "ir"], ["re", "et"], ["Ġc", "our"], ["Ġha", "lf"], ["ter", "s"], ["ĠM", "y"], ["t", "le"], ["Ġb", "ro"], ["ar", "b"], ["an", "k"], ["ur", "ing"], ["Ġfe", "lt"], ["Ġagain", "st"], ["ver", "s"], ["Ġsu", "n"], ["Ġday", "s"], ["Ġhar", "po"], [",", "âĢĻ"], ["f", "ort"], ["Ġs", "il"], ["at", "s"], ["ce", "ed"], ["Ġv", "is"], ["Ġwho", "le"], ["o", "ke"], ["Ġd", "oub"], ["ĠT", "his"], ["g", "g"], ["Ġde", "ar"], ["Ġop", "en"], ["Ġsomet", "hing"], ["a", "ut"], ["ha", "r"], ["Ġh", "our"], ["ĠĠ", "ĠĠ"], ["is", "ed"], ["ut", "e"], ["Ġst", "e"], ["Ġr", "ather"], ["Ġwat", "er"], ["u", "de"], ["ou", "d"], ["Ġwh", "om"], ["Ġan", "s"], ["Ġde", "ath"], ["Ġwha", "les"], ["g", "r"], ["Ġp", "ers"], ["Ġl", "ay"], ["Ġe", "ach"], ["d", "den"], ["re", "am"], ["Ġin", "ter"], ["as", "k"], ["Ġcan", "not"], ["Ġrem", "ark"], ["l", "er"], ["l", "ight"], ["y", "e"], ["st", "and"], ["ce", "pt"], ["ĠA", "s"], ["Ġb", "ed"], ["Ġin", "c"], ["Ġth", "ings"], ["Ġst", "and"], ["un", "g"], ["Ġad", "d"], ["t", "il"], ["v", "ent"], ["Ġs", "in"], ["Ġp", "le"], ["th", "is"], ["l", "p"], ["Ġs", "er"], ["Ġd", "ark"], ["Ġin", "te"], ["Ġpo", "int"], ["c", "ul"], ["i", "red"], ["ent", "le"], ["Ġre", "ason"], ["ĠC", "aptain"], ["Ġstran", "ge"], ["Ġs", "k"], ["Ġn", "ame"], ["id", "es"], ["Ġsu", "dden"], ["Ġpres", "ent"], ["s", "c"], ["Ġ", "U"], ["Ġc", "op"], ["Ġde", "ep"], ["Ġpo", "or"], ["Ġm", "in"], ["or", "n"], ["ar", "r"], ["Ġg", "u"], ["Ġg", "ive"], ["ain", "s"], ["Ġal", "ways"], ["Ġbet", "ween"], ["t", "en"], ["Ġb", "oth"], ["ĠSt", "ubb"], ["Ġcons", "ider"], ["Ġs", "ound"], ["om", "an"], ["ch", "ing"], ["Ġk", "ind"], ["ak", "en"], ["Ġcall", "ed"], ["_", "."], ["a", "ct"], ["he", "ther"], ["Ġg", "ot"], ["Ġen", "ough"], ["Ġcont", "in"], ["Y", "es"], ["ou", "l"], ["Ġf", "am"], ["oo", "l"], ["ĠW", "e"], ["Ġ", "hat"], ["in", "s"], ["Ġl", "ove"], ["Ġde", "ad"], ["li", "ke"], ["i", "et"], ["y", "ing"], ["Ġu", "se"], ["Ġre", "ad"], ["N", "o"], ["O", "h"], ["f", "ull"], ["at", "er"], ["ir", "c"], ["Ġfe", "et"], ["au", "ght"], ["Ġword", "s"], ["Ġlar", "ge"], ["Ġvo", "ice"], ["Ġdoub", "t"], ["w", "hat"], ["nd", "ed"], ["Ġkn", "ew"], ["Ġpass", "ed"], ["Ġbeg", "an"], ["?", "âĢĻ"], ["T", "here"], ["Ġd", "if"], ["ĠW", "hat"], ["Ġdo", "es"], ["ar", "n"], ["an", "y"], ["Ġh", "igh"], ["Ġre", "g"], ["Ġwith", "in"], ["Ġde", "v"], ["c", "er"], ["Ġw", "onder"], ["Ġb", "est"], ["Ġb", "lack"], ["Ġg", "i"], ["Ġas", "ked"], ["am", "p"], ["art", "ed"], ["Ġsha", "r"], ["s", "ide"], ["ou", "th"], ["or", "m"], ["Ġd", "one"], ["Ġin", "v"], ["ter", "n"], ["I", "n"], ["m", "on"], ["Ġw", "al"], ["Ġm", "ur"], ["en", "g"], ["Ġha", "ving"], ["Ġde", "p"], ["um", "p"], ["ĠG", "od"], ["ove", "red"], ["anc", "es"], ["p", "ro"], ["v", "i"], ["Ġd", "et"], ["Ġn", "or"], ["if", "ic"], ["ab", "ly"], ["Ġqu", "est"], ["Ġper", "haps"], ["get", "her"], ["W", "ell"], ["a", "z"], ["b", "ed"], ["f", "rom"], ["i", "ar"], ["o", "ot"], ["Ġs", "ight"], ["Ġbe", "lie"], ["Ġa", "ct"], ["Ġ", "ide"], ["ha", "d"], ["ent", "ion"], ["Ġfe", "ar"], ["Ġex", "t"], ["Ġinte", "rest"], ["c", "han"], ["n", "ight"], ["Ġw", "ant"], ["ha", "ve"], ["Ġin", "f"], ["Ġh", "ome"], ["Ġfor", "m"], ["Ġgo", "ing"], ["Ġturn", "ed"], ["Ġinst", "ant"], ["Ġf", "ore"], ["Ġe", "l"], ["Ġg", "entle"], ["em", "ent"], ["ĠThe", "y"], ["u", "ally"], ["Ġhe", "lp"], ["us", "ed"], ["Ġun", "til"], ["Ġbus", "iness"], ["a", "f"], ["os", "ed"], ["Ġey", "e"], ["Ġs", "ing"], ["Ġw", "ood"], ["it", "ing"], ["Ġf", "in"], ["Ġg", "ener"], ["cei", "ved"], ["Ġcour", "se"], ["ou", "n"], ["Ġd", "ro"], ["ar", "m"], ["Ġl", "ess"], ["Ġhe", "ar"], ["Ġas", "s"], ["ĠT", "h"], ["th", "ough"], ["uck", "et"], ["sh", "ip"], ["Ġbet", "ter"], ["x", "t"], ["Ġs", "ir"], ["Ġm", "ark"], ["ver", "al"], ["ro", "om"], ["ĠS", "o"], ["ate", "ly"], ["Ġwho", "se"], ["Ġfa", "ct"], ["Ġad", "v"], ["Ġob", "ser"], ["full", "y"], ["w", "here"], ["Ġd", "est"], ["Ġh", "old"], ["Ġbe", "h"], ["Ġch", "ild"], ["Ġho", "pe"], ["e", "e"], ["Ġb", "ody"], ["Ġd", "ire"], ["ir", "d"], ["the", "re"], ["for", "m"], ["re", "ady"], ["Ġh", "ur"], ["Ġsu", "re"], ["equ", "od"], ["Ġsle", "ep"], ["c", "ess"], ["Ġs", "ign"], ["Ġs", "oul"], ["Ġm", "o"], ["Ġc", "ra"], ["ri", "but"], ["itt", "ed"], ["lo", "se"], ["Ġke", "ep"], ["Ġ", "ri"], ["Ġf", "our"], ["ing", "ly"], ["Ġof", "ten"], ["Ġpro", "f"], ["Ġsin", "ce"], ["T", "his"], ["d", "ay"], ["y", "s"], ["Ġp", "h"], ["Ġg", "ave"], ["ĠT", "hen"], ["ak", "es"], ["li", "ed"], ["M", "y"], ["T", "hat"], ["a", "ven"], ["i", "ence"], ["Ġt", "ill"], ["ur", "al"], ["Ġr", "un"], ["ag", "es"], ["ĠE", "ng"], ["ĠK", "ing"], ["Ġple", "as"], ["u", "ff"], ["Ġth", "us"], ["ĠS", "perm"], ["ĠH", "ow"], ["Ġbec", "ame"], ["r", "ing"], ["re", "ak"], ["ĠH", "is"], ["Ġsu", "ff"], ["Ġal", "ong"], ["te", "red"], ["ie", "w"], ["op", "le"], ["Ġcount", "ry"], ["c", "ri"], ["h", "im"], ["l", "ong"], ["Ġt", "imes"], ["it", "ude"], ["Ġf", "ire"], ["id", "ed"], ["ĠA", "t"], ["Ġt", "al"], ["Ġs", "y"], ["Ġw", "hether"], ["Ġm", "ad"], ["is", "ter"], ["al", "s"], ["Ġst", "ep"], ["sel", "ves"], ["d", "u"], ["g", "o"], ["t", "s"], ["id", "ent"], ["ne", "y"], ["Ġcha", "r"], ["re", "nt"], ["Ġde", "ck"], ["ĠW", "hen"], ["us", "hed"], ["Ġlook", "ing"], ["Ġwork", "s"], ["b", "r"], ["Ġ", "ir"], ["Ġs", "we"], ["Ġc", "ab"], ["Ġto", "ld"], ["le", "g"], ["Ġp", "a"], ["Ġe", "as"], ["ri", "e"], ["ĠT", "hat"], ["Ġtr", "ue"], ["ron", "ic"], ["Ġcle", "ar"], ["Ġhum", "an"], ["arb", "uck"], ["f", "ic"], ["Ġw", "ild"], ["Ġwh", "y"], ["Ġle", "ast"], ["itt", "ing"], ["ac", "hed"], ["Ġrem", "em"], ["Ġbr", "ought"], ["cl", "ud"], ["W", "e"], ["a", "pp"], ["er", "able"], ["is", "ing"], ["Ġc", "irc"], ["ll", "ed"], ["an", "s"], ["Ġp", "rom"], ["ut", "h"], ["her", "lock"], ["Ġhard", "ly"], ["b", "it"], ["v", "ious"], ["Ġt", "aken"], ["Ġw", "ish"], ["er", "ing"], ["Ġf", "ur"], ["Ġbe", "aut"], ["Ġth", "ou"], ["Ġal", "one"], ["Ġany", "thing"], ["Ġsp", "ir"], ["Ġqu", "ick"], ["Ġstr", "ong"], ["Ġfell", "ow"], ["c", "la"], ["d", "is"], ["e", "c"], ["h", "ow"], ["i", "er"], ["Ġc", "are"], ["Ġc", "lose"], ["Ġg", "one"], ["em", "pt"], ["ant", "ucket"], ["Ġli", "ve"], ["ĠP", "equod"], ["Ġide", "a"], ["a", "cc"], ["Ġ", "es"], ["Ġin", "s"], ["ar", "ch"], ["ic", "ular"], ["Ġg", "re"], ["Ġst", "ood"], ["Ġse", "veral"], ["ill", "ed"], ["Ġpers", "on"], ["s", "he"], ["u", "ed"], ["z", "ab"], ["Ġb", "ene"], ["Ġc", "ut"], ["Ġit", "self"], ["il", "s"], ["li", "zab"], ["Ġar", "m"], ["ment", "s"], ["oy", "age"], ["ĠJ", "on"], ["Ġharpo", "one"], ["Ġcop", "y"], ["lizab", "eth"], ["u", "g"], ["Ġs", "im"], ["Ġd", "uring"], ["at", "ive"], ["Ġh", "or"], ["Ġe", "ff"], ["Ġher", "self"], ["Ġab", "s"], ["ĠF", "l"], ["cul", "iar"], ["i", "ent"], ["l", "s"], ["y", "ed"], ["y", "our"], ["Ġt", "ran"], ["il", "ed"], ["ie", "f"], ["Ġcomp", "le"], ["Ġob", "ject"], ["T", "hen"], ["w", "or"], ["w", "hen"], ["Ġ", "*"], ["Ġw", "oman"], ["Ġf", "ree"], ["Ġl", "aw"], ["âĢĶ", "_"], ["Ġne", "xt"], ["Ġwind", "ow"], ["Ġear", "th"], ["eng", "th"], ["S", "t"], ["w", "ould"], ["Ġf", "lo"], ["Ġc", "al"], ["Ġst", "ory"], ["Ġkn", "own"], ["ĠD", "o"], ["Ġquest", "ion"], ["A", "s"], ["it", "ies"], ["Ġl", "ady"], ["ĠA", "r"], ["um", "b"], ["Ġyour", "self"], ["ĠSt", "arbuck"], ["Ġseem", "s"], ["Ġbl", "ood"], ["Ġent", "ire"], ["Ġ", "ut"], ["ou", "red"], ["Ġm", "ount"], ["en", "ess"], ["Ġh", "un"], ["Ġal", "ready"], ["ĠN", "ow"], ["ĠO", "n"], ["Ġbec", "ause"], ["Ġsomet", "imes"], ["Ġnat", "ure"], ["lect", "ronic"], ["w", "er"], ["Ġt", "ri"], ["Ġt", "able"], ["Ġa", "w"], ["Ġm", "id"], ["Ġb", "ur"], ["Ġc", "ol"], ["an", "e"], ["Ġl", "ist"], ["Ġl", "ost"], ["ra", "ph"], ["ous", "and"], ["ag", "ed"], ["ap", "pe"], ["Ġappe", "ared"], ["Ġbeh", "ind"], ["!", "âĢĻ"], ["N", "ow"], ["w", "ill"], ["it", "er"], ["Ġre", "ally"], ["Ġcon", "cer"], ["ard", "s"], ["Ġar", "ri"], ["Ġappe", "ar"], ["fort", "un"], ["Ġsudden", "ly"], ["H", "ow"], ["Ċ", "ĊĠ"], ["Ġ", "2"], ["in", "ted"], ["Ġm", "et"], ["il", "t"], ["Ġv", "iew"], ["Ġle", "g"], ["ĠN", "antucket"], ["we", "red"], ["Ġwha", "ling"], ["c", "ast"], ["o", "b"], ["o", "ver"], ["Ġt", "re"], ["Ġs", "ens"], ["Ġb", "it"], ["Ġc", "ond"], ["Ġp", "ower"], ["Ġst", "ri"], ["Ġsh", "ort"], ["us", "h"], ["one", "y"], ["Ġen", "g"], ["Ġpe", "ople"], ["Ġacc", "ount"], ["ren", "ce"], ["ix", "ed"], ["Ġcreat", "ure"], ["d", "o"], ["l", "ook"], ["w", "hale"], ["Ġt", "ou"], ["nd", "ing"], ["Ġf", "ish"], ["Ġl", "ow"], ["Ġl", "ine"], ["Ġl", "ength"], ["ut", "es"], ["ri", "ble"], ["th", "y"], ["Ġpro", "v"], ["Ġus", "ed"], ["a", "ving"], ["c", "ent"], ["e", "av"], ["u", "se"], ["Ġs", "n"], ["is", "her"], ["Ġc", "old"], ["Ġc", "rew"], ["Ġp", "ol"], ["Ġh", "orr"], ["Ġhe", "av"], ["ĠM", "iss"], ["pp", "ing"], ["Ġex", "am"], ["Ġspe", "ak"], ["Ġunder", "stand"], ["ĊĠĠĠ", "ĠĠĠĠ"], ["ats", "on"], ["a", "pe"], ["Ġ", "âĢĻ"], ["Ġ", "âĢĶ_"], ["Ġd", "ri"], ["âĢĶ", "âĢĿ"], ["ry", "ing"], ["Ġdis", "c"], ["Ġcomp", "an"], ["ret", "ched"], ["Ġsec", "ond"], ["k", "n"], ["m", "b"], ["u", "nder"], ["Ġc", "aptain"], ["Ġto", "r"], ["Ġre", "l"], ["Ġso", "l"], ["Ġex", "pl"], ["Ġman", "ner"], ["Ġle", "ave"], ["Ġne", "ed"], ["ĠP", "e"], ["Ġgr", "ound"], ["Ġpl", "ay"], ["Ġter", "ms"], ["Ġbelie", "ve"], ["c", "y"], ["w", "ell"], ["er", "n"], ["Ġp", "ar"], ["ck", "et"], ["ĠC", "h"], ["ect", "ion"], ["ie", "ld"], ["ĠE", "lizabeth"], ["Ġposs", "ible"], ["T", "h"], ["c", "ha"], ["p", "ose"], ["in", "es"], ["Ġs", "on"], ["at", "han"], ["im", "p"], ["ur", "y"], ["am", "es"], ["um", "st"], ["ag", "er"], ["Ġaf", "fect"], ["ious", "ly"], ["Ġim", "ag"], ["led", "ge"], ["ild", "ad"], ["Ġpre", "c"], ["Ġpe", "culiar"], ["Ġmean", "s"], ["Ġans", "wered"], ["ĠJon", "ah"], ["ĠFl", "ask"], ["i", "a"], ["n", "ed"], ["on", "t"], ["Ġf", "all"], ["Ġto", "gether"], ["Ġha", "ir"], ["Ġg", "ra"], ["Ġr", "an"], ["ect", "ed"], ["Ġsp", "oke"], ["Ġboat", "s"], ["ĠQue", "en"], ["ron", "t"], ["Ġhour", "s"], ["vi", "athan"], ["Ġel", "se"], [")", ","], ["s", "ome"], ["Ġw", "ife"], ["ĠI", "nd"], ["ent", "y"], ["ce", "an"], ["Ġsu", "m"], ["Ġthere", "fore"], ["up", "on"], ["Ġsl", "ow"], ["Ġmon", "th"], ["Ġdra", "w"], ["Ġt", "en"], ["Ġm", "outh"], ["Ġg", "ir"], ["Ġre", "d"], ["il", "es"], ["if", "ul"], ["ĠW", "atson"], ["ĠN", "o"], ["anc", "y"], ["Ġfriend", "s"], ["bo", "ard"], ["g", "ing"], ["l", "ow"], ["p", "ed"], ["r", "ound"], ["in", "ct"], ["Ġs", "ent"], ["Ġf", "oot"], ["Ġc", "ap"], ["Ġd", "read"], ["Ġfor", "th"], ["ĠT", "ur"], ["ĠA", "n"], ["ound", "ation"], ["ĠO", "h"], ["ap", "ers"], ["for", "d"], ["Ġsc", "ene"], ["iz", "ed"], ["Ġsur", "pr"], ["Ġac", "ross"], ["Ġgi", "ven"], ["A", "lice"], ["b", "s"], ["d", "es"], ["l", "ish"], ["p", "air"], ["Ġ", "ill"], ["Ġs", "perm"], ["Ġb", "ound"], ["Ġb", "ook"], ["Ġb", "reak"], ["on", "y"], ["Ġc", "ott"], ["Ġp", "ain"], ["ic", "ally"], ["st", "r"], ["Ġor", "der"], ["Ġab", "ove"], ["ĠL", "e"], ["we", "re"], ["fe", "rent"], ["Ġent", "ered"], ["und", "red"], ["g", "in"], ["m", "p"], ["p", "re"], ["p", "la"], ["on", "es"], ["Ġf", "ront"], ["Ġe", "ither"], ["the", "y"], ["Ġv", "oyage"], ["Ġcertain", "ly"], ["Ġremark", "ed"], ["Ġdire", "ct"], ["Ġb", "ott"], ["Ġp", "ull"], ["Ġth", "ousand"], ["ri", "age"], ["oo", "se"], ["ess", "ion"], ["il", "ing"], ["il", "ity"], ["Ġle", "arn"], ["os", "ition"], ["Ġcha", "ir"], ["Ġnear", "ly"], ["Wh", "y"], ["c", "an"], ["s", "pe"], ["u", "ght"], ["in", "ation"], ["is", "on"], ["Ġc", "e"], ["Ġc", "ause"], ["es", "ides"], ["at", "t"], ["as", "ter"], ["Ġh", "on"], ["Ġl", "au"], ["Ġe", "le"], ["ot", "s"], ["Ġg", "lo"], ["Ġcom", "ing"], ["Ġj", "oy"], ["ĠF", "oundation"], ["Ġfeel", "ings"], ["mer", "ic"], ["Ġcur", "ious"], ["Ġvis", "it"], ["Ġmin", "utes"], ["_", ","], ["m", "ore"], ["s", "ha"], ["w", "ise"], ["in", "c"], ["ha", "nd"], ["es", "sel"], ["as", "ed"], ["st", "e"], ["id", "ence"], ["Ġst", "ate"], ["ess", "ed"], ["ous", "ly"], ["Ġv", "ar"], ["Ġv", "essel"], ["Ġpr", "ot"], ["Ġcomm", "on"], ["ib", "ly"], ["ĠPe", "leg"], ["i", "pe"], ["i", "ol"], ["Ġ", "ed"], ["Ġs", "it"], ["Ġs", "ister"], ["Ġc", "a"], ["Ġto", "wn"], ["Ġd", "ream"], ["Ġp", "ort"], ["Ġn", "arr"], ["Ġhe", "aven"], ["et", "y"], ["Ġst", "ra"], ["Ġme", "re"], ["Ġan", "g"], ["âĢĶ", "âĢľ"], ["ĠB", "ildad"], ["um", "ber"], ["Ġqu", "iet"], ["Ġbo", "ard"], ["Ġoff", "ic"], ["Ġpl", "ain"], ["ĠWh", "ite"], ["Q", "u"], ["c", "ould"], ["o", "le"], ["r", "ay"], ["t", "on"], ["v", "ol"], ["Ġ", "ice"], ["Ġs", "qu"], ["Ġo", "pp"], ["er", "m"], ["Ġm", "ag"], ["Ġm", "ine"], ["at", "ch"], ["Ġe", "lectronic"], ["Ġst", "art"], ["Ġwe", "e"], ["Ġme", "et"], ["Ġsu", "per"]], "vocab_size": 2000}